// --- LAYER 1 WEIGHTS (32 values) ---
0228
0601
088A
F7F4
F9F2
FEDC
F772
023E
FF8D
02AA
FDEA
00E0
02C7
F3D9
DB69
FCBA
F8E3
0035
F995
FFC4
0148
0691
1009
FF77
F780
FCA9
04E1
EB24
01EC
FF7F
FB8D
F983

// --- LAYER 2 WEIGHTS (8 values) ---
0226
0060
FFDF
FC32
0557
0604
00F3
FCF2

// --- LAYER 1 BIASES (8 values) ---
01C2
FE0E
FD3D
1035
FB22
03D9
01BC
FA77

// --- LAYER 2 BIAS (1 value) ---
0440